#ifndef MODEL_DATA_H
                #define MODEL_DATA_H
                #include <cstdint>
                alignas(16) const unsigned char model_tflite[] = {
    0x20, 0x00, 0x00, 0x00, 0x54, 0x46, 0x4c, 0x33, 0x00, 0x00, 0x00, 0x00,
    0x14, 0x00, 0x20, 0x00, 0x1c, 0x00, 0x18, 0x00, 0x14, 0x00, 0x10, 0x00,
    0x0c, 0x00, 0x00, 0x00, 0x08, 0x00, 0x04, 0x00, 0x14, 0x00, 0x00, 0x00,
    0x1c, 0x00, 0x00, 0x00, 0x8c, 0x00, 0x00, 0x00, 0xe4, 0x00, 0x00, 0x00,
    0x60, 0x0e, 0x00, 0x00, 0x70, 0x0e, 0x00, 0x00, 0xa8, 0x19, 0x00, 0x00,
    0x03, 0x00, 0x00, 0x00, 0x01, 0x00, 0x00, 0x00, 0x04, 0x00, 0x00, 0x00,
    0x52, 0xf1, 0xff, 0xff, 0x0c, 0x00, 0x00, 0x00, 0x1c, 0x00, 0x00, 0x00,
    0x3c, 0x00, 0x00, 0x00, 0x0f, 0x00, 0x00, 0x00, 0x73, 0x65, 0x72, 0x76,
    0x69, 0x6e, 0x67, 0x5f, 0x64, 0x65, 0x66, 0x61, 0x75, 0x6c, 0x74, 0x00,
    0x01, 0x00, 0x00, 0x00, 0x04, 0x00, 0x00, 0x00, 0x90, 0xff, 0xff, 0xff,
    0x0a, 0x00, 0x00, 0x00, 0x04, 0x00, 0x00, 0x00, 0x08, 0x00, 0x00, 0x00,
    0x6f, 0x75, 0x74, 0x70, 0x75, 0x74, 0x5f, 0x30, 0x00, 0x00, 0x00, 0x00,
    0x01, 0x00, 0x00, 0x00, 0x04, 0x00, 0x00, 0x00, 0x26, 0xf2, 0xff, 0xff,
    0x04, 0x00, 0x00, 0x00, 0x0c, 0x00, 0x00, 0x00, 0x6b, 0x65, 0x72, 0x61,
    0x73, 0x5f, 0x74, 0x65, 0x6e, 0x73, 0x6f, 0x72, 0x00, 0x00, 0x00, 0x00,
    0x02, 0x00, 0x00, 0x00, 0x34, 0x00, 0x00, 0x00, 0x04, 0x00, 0x00, 0x00,
    0xdc, 0xff, 0xff, 0xff, 0x0d, 0x00, 0x00, 0x00, 0x04, 0x00, 0x00, 0x00,
    0x13, 0x00, 0x00, 0x00, 0x43, 0x4f, 0x4e, 0x56, 0x45, 0x52, 0x53, 0x49,
    0x4f, 0x4e, 0x5f, 0x4d, 0x45, 0x54, 0x41, 0x44, 0x41, 0x54, 0x41, 0x00,
    0x08, 0x00, 0x0c, 0x00, 0x08, 0x00, 0x04, 0x00, 0x08, 0x00, 0x00, 0x00,
    0x0c, 0x00, 0x00, 0x00, 0x04, 0x00, 0x00, 0x00, 0x13, 0x00, 0x00, 0x00,
    0x6d, 0x69, 0x6e, 0x5f, 0x72, 0x75, 0x6e, 0x74, 0x69, 0x6d, 0x65, 0x5f,
    0x76, 0x65, 0x72, 0x73, 0x69, 0x6f, 0x6e, 0x00, 0x0e, 0x00, 0x00, 0x00,
    0x78, 0x0d, 0x00, 0x00, 0x70, 0x0d, 0x00, 0x00, 0x5c, 0x0d, 0x00, 0x00,
    0x34, 0x0d, 0x00, 0x00, 0xe4, 0x0c, 0x00, 0x00, 0xd4, 0x0a, 0x00, 0x00,
    0x44, 0x0a, 0x00, 0x00, 0xb4, 0x00, 0x00, 0x00, 0xac, 0x00, 0x00, 0x00,
    0xa4, 0x00, 0x00, 0x00, 0x9c, 0x00, 0x00, 0x00, 0x94, 0x00, 0x00, 0x00,
    0x74, 0x00, 0x00, 0x00, 0x04, 0x00, 0x00, 0x00, 0xda, 0xf2, 0xff, 0xff,
    0x04, 0x00, 0x00, 0x00, 0x60, 0x00, 0x00, 0x00, 0x0c, 0x00, 0x00, 0x00,
    0x08, 0x00, 0x0e, 0x00, 0x08, 0x00, 0x04, 0x00, 0x08, 0x00, 0x00, 0x00,
    0x10, 0x00, 0x00, 0x00, 0x28, 0x00, 0x00, 0x00, 0x00, 0x00, 0x06, 0x00,
    0x08, 0x00, 0x04, 0x00, 0x06, 0x00, 0x00, 0x00, 0x04, 0x00, 0x00, 0x00,
    0x01, 0x00, 0x00, 0x00, 0xeb, 0x03, 0x00, 0x00, 0x0c, 0x00, 0x18, 0x00,
    0x14, 0x00, 0x10, 0x00, 0x0c, 0x00, 0x04, 0x00, 0x0c, 0x00, 0x00, 0x00,
    0xa6, 0xec, 0x51, 0xef, 0x33, 0x0b, 0x12, 0x09, 0x02, 0x00, 0x00, 0x00,
    0x02, 0x00, 0x00, 0x00, 0x04, 0x00, 0x00, 0x00, 0x06, 0x00, 0x00, 0x00,
    0x32, 0x2e, 0x32, 0x30, 0x2e, 0x30, 0x00, 0x00, 0x46, 0xf3, 0xff, 0xff,
    0x04, 0x00, 0x00, 0x00, 0x10, 0x00, 0x00, 0x00, 0x31, 0x2e, 0x31, 0x34,
    0x2e, 0x30, 0x00, 0x00, 0x00, 0x00, 0x00, 0x00, 0x00, 0x00, 0x00, 0x00,
    0xa0, 0xf2, 0xff, 0xff, 0xa4, 0xf2, 0xff, 0xff, 0xa8, 0xf2, 0xff, 0xff,
    0xac, 0xf2, 0xff, 0xff, 0x72, 0xf3, 0xff, 0xff, 0x04, 0x00, 0x00, 0x00,
    0x80, 0x09, 0x00, 0x00, 0xc0, 0xc9, 0xae, 0x20, 0xf8, 0x01, 0x56, 0x7f,
    0x00, 0xc7, 0xd2, 0x54, 0x2f, 0xdc, 0x00, 0x3e, 0xbf, 0xf1, 0xde, 0xed,
    0xdf, 0x2f, 0x13, 0xe2, 0x51, 0xfc, 0xc2, 0xeb, 0xb2, 0x2c, 0x1d, 0xe4,
    0x43, 0x4a, 0x2d, 0xd0, 0xfc, 0xe5, 0x02, 0x1c, 0x04, 0x69, 0x70, 0x15,
    0x3c, 0xb8, 0x19, 0x15, 0xf1, 0x3a, 0xff, 0xed, 0xe6, 0xe3, 0xf2, 0xe6,
    0x0d, 0xce, 0xfa, 0x39, 0xea, 0xd5, 0xf3, 0xed, 0x69, 0x5e, 0x0f, 0xfc,
    0x04, 0xeb, 0xe3, 0x19, 0x52, 0xe2, 0x00, 0x00, 0xb7, 0x01, 0x2c, 0xd3,
    0xf9, 0x38, 0xde, 0xc2, 0xc8, 0x3f, 0xcd, 0xff, 0x01, 0xf0, 0xfe, 0x05,
    0xdf, 0xfd, 0xfc, 0x03, 0x14, 0x06, 0xf6, 0xf0, 0xdb, 0x00, 0xda, 0x11,
    0x33, 0x0e, 0xd3, 0x01, 0xbc, 0xd5, 0x30, 0x4e, 0xe2, 0xf3, 0x36, 0xc9,
    0xe7, 0xfa, 0xee, 0xe5, 0x02, 0x05, 0xe1, 0xfd, 0xf6, 0xd2, 0xd3, 0xee,
    0x07, 0x2c, 0xfb, 0xf8, 0xaf, 0xdf, 0x2c, 0xe1, 0x17, 0x4e, 0x10, 0xf4,
    0x86, 0xe5, 0xf4, 0xdd, 0x81, 0xfd, 0x28, 0xf3, 0xea, 0xe2, 0x00, 0x00,
    0x00, 0x00, 0x00, 0x00, 0x00, 0x00, 0x00, 0x00, 0x00, 0x00, 0x00, 0x00,
    0x00, 0x00, 0x00, 0x00, 0x00, 0x00, 0x00, 0x00, 0x00, 0x00, 0x00, 0x00,
    0x00, 0x00, 0x00, 0x00, 0x00, 0x00, 0x00, 0x00, 0x00, 0x00, 0x00, 0x00,
    0x00, 0x00, 0x00, 0x00, 0x00, 0x00, 0x00, 0x00, 0x00, 0x00, 0x00, 0x00,
    0x00, 0x00, 0x00, 0x00, 0x00, 0x00, 0x00, 0x00, 0x00, 0x00, 0x00, 0x00,
    0x00, 0x00, 0x00, 0x00, 0x00, 0x00, 0x00, 0x00, 0x00, 0x00, 0x00, 0x00,
    0x00, 0x00, 0x00, 0x00, 0x00, 0x00, 0x00, 0x00, 0x00, 0x00, 0x00, 0x00,
    0x00, 0x00, 0x00, 0x00, 0x00, 0x00, 0x00, 0x00, 0x00, 0x00, 0x00, 0x00,
    0x00, 0x00, 0x00, 0x00, 0x00, 0x00, 0x00, 0x00, 0x00, 0x00, 0x00, 0x00,
    0x00, 0x00, 0x00, 0x00, 0x00, 0x00, 0x00, 0x00, 0x00, 0x00, 0x00, 0x00,
    0x00, 0x00, 0x00, 0x00, 0x00, 0x00, 0x00, 0x00, 0x00, 0x00, 0x00, 0x00,
    0x00, 0x00, 0x00, 0x00, 0x00, 0x00, 0x00, 0x00, 0x00, 0x00, 0x00, 0x00,
    0x00, 0x00, 0x00, 0x00, 0x00, 0x00, 0x00, 0x00, 0x0e, 0xf8, 0xd6, 0xdf,
    0x14, 0x1d, 0xfb, 0xed, 0x3f, 0x08, 0xe1, 0x04, 0x08, 0xe7, 0xdf, 0x0c,
    0x52, 0x0d, 0xfd, 0x10, 0xda, 0xf4, 0x44, 0xe8, 0xeb, 0xfb, 0x19, 0x1f,
    0xd3, 0xf2, 0x1b, 0xcf, 0xbd, 0xfb, 0xff, 0x23, 0xf1, 0xfd, 0x97, 0xb6,
    0x01, 0xd4, 0x0f, 0xd9, 0x2b, 0xf7, 0xdc, 0x48, 0x1a, 0x14, 0x0a, 0x11,
    0xe5, 0xf4, 0x41, 0x7f, 0xf0, 0x1c, 0x0e, 0x6b, 0xd6, 0xc9, 0xd7, 0x03,
    0xcf, 0xd1, 0x1f, 0xed, 0xc5, 0x1d, 0x5c, 0x0c, 0x0c, 0xad, 0x00, 0x00,
    0xf0, 0x23, 0xcd, 0x17, 0x05, 0x11, 0xf7, 0xf9, 0x13, 0xc5, 0xcf, 0xe2,
    0x22, 0xc9, 0xfd, 0x0a, 0x28, 0xf7, 0xd5, 0xf6, 0x22, 0x1c, 0xd7, 0x2f,
    0x17, 0x01, 0xb8, 0xf1, 0x12, 0xea, 0xe1, 0x05, 0x5b, 0x09, 0xc3, 0xe5,
    0x1c, 0xfc, 0xe6, 0xe8, 0x0e, 0xfb, 0xfb, 0x0e, 0xd7, 0x4b, 0xe0, 0x1b,
    0x17, 0xd3, 0xf1, 0xf7, 0xfb, 0x06, 0x16, 0x28, 0x17, 0xf8, 0x15, 0xed,
    0x11, 0x12, 0x00, 0x23, 0x81, 0xdc, 0xfa, 0x30, 0x08, 0x07, 0xfc, 0x00,
    0x0c, 0xd2, 0x00, 0x00, 0x00, 0x00, 0x00, 0x00, 0x00, 0x00, 0x00, 0x00,
    0x00, 0x00, 0x00, 0x00, 0x00, 0x00, 0x00, 0x00, 0x00, 0x00, 0x00, 0x00,
    0x00, 0x00, 0x00, 0x00, 0x00, 0x00, 0x00, 0x00, 0x00, 0x00, 0x00, 0x00,
    0x00, 0x00, 0x00, 0x00, 0x00, 0x00, 0x00, 0x00, 0x00, 0x00, 0x00, 0x00,
    0x00, 0x00, 0x00, 0x00, 0x00, 0x00, 0x00, 0x00, 0x00, 0x00, 0x00, 0x00,
    0x00, 0x00, 0x00, 0x00, 0x00, 0x00, 0x00, 0x00, 0x00, 0x00, 0x00, 0x00,
    0x00, 0x00, 0x00, 0x00, 0x00, 0x00, 0x00, 0x00, 0xa1, 0x03, 0xe1, 0xa3,
    0xeb, 0x0a, 0x27, 0xfc, 0xd6, 0x32, 0xb9, 0xb2, 0xf8, 0x1a, 0x46, 0xd1,
    0x46, 0x25, 0xb0, 0xc1, 0x06, 0x5b, 0xe5, 0xeb, 0xbd, 0xd1, 0x01, 0x0b,
    0xfc, 0x3f, 0x00, 0xcc, 0xc0, 0xe5, 0xf3, 0xfd, 0xa0, 0xc4, 0x01, 0x00,
    0xec, 0xf6, 0x1c, 0x3e, 0x8c, 0xf2, 0xc6, 0xc0, 0xfc, 0x13, 0x46, 0x0b,
    0xe0, 0x49, 0x1d, 0xe4, 0x1d, 0x1f, 0x38, 0xda, 0xe0, 0x09, 0xdc, 0x9f,
    0xa0, 0x04, 0x0e, 0x48, 0x7f, 0x2f, 0x14, 0xef, 0x2f, 0xe7, 0x00, 0x00,
    0x00, 0x00, 0x00, 0x00, 0x00, 0x00, 0x00, 0x00, 0x00, 0x00, 0x00, 0x00,
    0x00, 0x00, 0x00, 0x00, 0x00, 0x00, 0x00, 0x00, 0x00, 0x00, 0x00, 0x00,
    0x00, 0x00, 0x00, 0x00, 0x00, 0x00, 0x00, 0x00, 0x00, 0x00, 0x00, 0x00,
    0x00, 0x00, 0x00, 0x00, 0x00, 0x00, 0x00, 0x00, 0x00, 0x00, 0x00, 0x00,
    0x00, 0x00, 0x00, 0x00, 0x00, 0x00, 0x00, 0x00, 0x00, 0x00, 0x00, 0x00,
    0x00, 0x00, 0x00, 0x00, 0x00, 0x00, 0x00, 0x00, 0x00, 0x00, 0x00, 0x00,
    0x00, 0x00, 0x00, 0x00, 0x03, 0xf3, 0x18, 0x0a, 0x06, 0x4a, 0x3c, 0x7c,
    0x42, 0x95, 0xd6, 0x00, 0x59, 0x15, 0x03, 0x37, 0x20, 0x44, 0xdc, 0xe4,
    0x2e, 0x00, 0x3d, 0x0f, 0x6a, 0x17, 0x1b, 0x05, 0x00, 0x56, 0x22, 0x13,
    0xed, 0x16, 0x2c, 0xaf, 0x32, 0xe9, 0xe2, 0x01, 0xe8, 0xee, 0x13, 0x24,
    0x11, 0x30, 0xdc, 0xc4, 0x0d, 0x5a, 0xe8, 0xad, 0x0b, 0x3d, 0x17, 0x81,
    0x3b, 0x0c, 0xe6, 0xfe, 0x1f, 0x42, 0x08, 0xa5, 0x8f, 0x16, 0xe8, 0xf3,
    0xda, 0xe5, 0xe2, 0xf6, 0x0a, 0xc9, 0x00, 0x00, 0x5b, 0xec, 0xf8, 0xff,
    0xd4, 0xed, 0x2c, 0x07, 0x37, 0x17, 0xa8, 0x22, 0xc7, 0x14, 0x1e, 0xec,
    0x3a, 0xfb, 0xf8, 0x1a, 0x32, 0x0d, 0xfe, 0xba, 0x3a, 0xf5, 0xfe, 0x46,
    0x7f, 0x0c, 0x04, 0xed, 0xe6, 0xd5, 0xdf, 0x14, 0x15, 0x47, 0x14, 0xec,
    0xf0, 0x11, 0x0d, 0x09, 0xfc, 0x01, 0x49, 0x27, 0xf5, 0x0f, 0xfa, 0x00,
    0xfe, 0xc6, 0x06, 0x1c, 0x1b, 0xbc, 0xc7, 0x10, 0xd4, 0xf9, 0x49, 0x00,
    0x0a, 0xe9, 0xed, 0xef, 0x12, 0xd6, 0xe5, 0x1e, 0xe0, 0x0e, 0x00, 0x00,
    0x00, 0x00, 0x00, 0x00, 0x00, 0x00, 0x00, 0x00, 0x00, 0x00, 0x00, 0x00,
    0x00, 0x00, 0x00, 0x00, 0x00, 0x00, 0x00, 0x00, 0x00, 0x00, 0x00, 0x00,
    0x00, 0x00, 0x00, 0x00, 0x00, 0x00, 0x00, 0x00, 0x00, 0x00, 0x00, 0x00,
    0x00, 0x00, 0x00, 0x00, 0x00, 0x00, 0x00, 0x00, 0x00, 0x00, 0x00, 0x00,
    0x00, 0x00, 0x00, 0x00, 0x00, 0x00, 0x00, 0x00, 0x00, 0x00, 0x00, 0x00,
    0x00, 0x00, 0x00, 0x00, 0x00, 0x00, 0x00, 0x00, 0x00, 0x00, 0x00, 0x00,
    0x00, 0x00, 0x00, 0x00, 0x00, 0x00, 0x00, 0x00, 0x00, 0x00, 0x00, 0x00,
    0x00, 0x00, 0x00, 0x00, 0x00, 0x00, 0x00, 0x00, 0x00, 0x00, 0x00, 0x00,
    0x00, 0x00, 0x00, 0x00, 0x00, 0x00, 0x00, 0x00, 0x00, 0x00, 0x00, 0x00,
    0x00, 0x00, 0x00, 0x00, 0x00, 0x00, 0x00, 0x00, 0x00, 0x00, 0x00, 0x00,
    0x00, 0x00, 0x00, 0x00, 0x00, 0x00, 0x00, 0x00, 0x00, 0x00, 0x00, 0x00,
    0x00, 0x00, 0x00, 0x00, 0x00, 0x00, 0x00, 0x00, 0x00, 0x00, 0x00, 0x00,
    0x00, 0x00, 0x00, 0x00, 0x00, 0x00, 0x00, 0x00, 0x0e, 0xcd, 0x05, 0x1d,
    0x10, 0xe2, 0xff, 0xfc, 0xf2, 0xd8, 0xea, 0xf9, 0x32, 0xe3, 0xef, 0x03,
    0x11, 0x1b, 0x25, 0x09, 0x28, 0x0d, 0x0a, 0xbe, 0x13, 0x15, 0x04, 0xd4,
    0x0b, 0xf9, 0xf2, 0xe7, 0xdb, 0x32, 0xea, 0xf1, 0x0b, 0xfb, 0x07, 0x2c,
    0xf5, 0x1c, 0xe4, 0xfd, 0x11, 0x0e, 0x17, 0xeb, 0xe9, 0x2d, 0xf5, 0xf0,
    0x0f, 0x25, 0x0e, 0xe1, 0xea, 0xe7, 0xf3, 0xd2, 0xfb, 0xeb, 0xeb, 0x13,
    0xd9, 0x81, 0x1d, 0x41, 0x9a, 0x1f, 0x3b, 0x05, 0x8b, 0x94, 0x00, 0x00,
    0x00, 0x00, 0x00, 0x00, 0x00, 0x00, 0x00, 0x00, 0x00, 0x00, 0x00, 0x00,
    0x00, 0x00, 0x00, 0x00, 0x00, 0x00, 0x00, 0x00, 0x00, 0x00, 0x00, 0x00,
    0x00, 0x00, 0x00, 0x00, 0x00, 0x00, 0x00, 0x00, 0x00, 0x00, 0x00, 0x00,
    0x00, 0x00, 0x00, 0x00, 0x00, 0x00, 0x00, 0x00, 0x00, 0x00, 0x00, 0x00,
    0x00, 0x00, 0x00, 0x00, 0x00, 0x00, 0x00, 0x00, 0x00, 0x00, 0x00, 0x00,
    0x00, 0x00, 0x00, 0x00, 0x00, 0x00, 0x00, 0x00, 0x00, 0x00, 0x00, 0x00,
    0x00, 0x00, 0x00, 0x00, 0xf1, 0xeb, 0xba, 0xd9, 0x0d, 0xeb, 0x0c, 0xdc,
    0xbe, 0x2e, 0x30, 0xbf, 0xc9, 0x2f, 0xd9, 0x1d, 0xdc, 0xfe, 0x2e, 0x07,
    0xba, 0xf8, 0xcb, 0xc9, 0xf7, 0xef, 0xf0, 0x08, 0x1c, 0x0d, 0x00, 0x05,
    0xfc, 0x02, 0x09, 0x17, 0x1c, 0xec, 0x19, 0xe5, 0x2c, 0x38, 0x0c, 0x24,
    0xe9, 0xda, 0xe9, 0x20, 0xc6, 0xdb, 0xcc, 0x20, 0xc9, 0xc7, 0x1b, 0xa5,
    0xec, 0xdd, 0x24, 0xeb, 0xf6, 0xec, 0x0a, 0xe8, 0xa0, 0x9a, 0x15, 0x0e,
    0x83, 0x16, 0x2a, 0x21, 0x81, 0xab, 0x00, 0x00, 0x45, 0x1f, 0xf1, 0xd7,
    0x2e, 0xe4, 0xeb, 0xc4, 0x18, 0xf7, 0xe0, 0xe0, 0x26, 0x07, 0x20, 0x05,
    0x0c, 0xcd, 0xe1, 0xf4, 0xf4, 0x1d, 0xca, 0x11, 0xef, 0xeb, 0xf9, 0xe4,
    0xe9, 0xd9, 0xf8, 0x02, 0xfa, 0x11, 0xd5, 0xd3, 0x01, 0xfa, 0x01, 0xf9,
    0x10, 0x51, 0xbb, 0xf2, 0x1a, 0x31, 0x1e, 0x1e, 0xfe, 0x22, 0xd3, 0xf5,
    0x5d, 0x33, 0x27, 0xd6, 0x06, 0x05, 0xe3, 0xf9, 0x13, 0xe4, 0xd8, 0x81,
    0x4a, 0xf7, 0xdc, 0x22, 0x54, 0xc2, 0x40, 0x16, 0xf7, 0xd7, 0x00, 0x00,
    0xdd, 0xe8, 0xf5, 0x0b, 0x15, 0xec, 0xf5, 0x16, 0xe3, 0xf1, 0xe9, 0x12,
    0xf2, 0x03, 0xdd, 0xf0, 0xea, 0xc0, 0x34, 0x02, 0x10, 0xf4, 0x06, 0xde,
    0xe4, 0x09, 0xd2, 0xcd, 0xfc, 0x3b, 0x30, 0x10, 0xeb, 0xfa, 0x31, 0xca,
    0xeb, 0x20, 0x30, 0xfe, 0xfb, 0xf9, 0x19, 0x01, 0x0d, 0xab, 0x0b, 0xf1,
    0xf4, 0x24, 0x1e, 0x0b, 0x28, 0xff, 0xed, 0xc2, 0x00, 0x0f, 0xe9, 0xea,
    0xda, 0xfd, 0xfa, 0xd7, 0xd0, 0xa1, 0xfc, 0x07, 0x81, 0x09, 0x17, 0x09,
    0xb5, 0xa6, 0x00, 0x00, 0x0a, 0x37, 0xe1, 0x1c, 0xde, 0xf2, 0xd3, 0x37,
    0x0d, 0xdc, 0x0a, 0xe8, 0xe6, 0xcc, 0x15, 0x2e, 0xf1, 0xef, 0xf5, 0x0e,
    0x03, 0xfc, 0xb1, 0xf6, 0xbb, 0xf7, 0xfd, 0xd5, 0xe4, 0x07, 0x15, 0x37,
    0x1a, 0x00, 0x30, 0xcb, 0x09, 0x24, 0x0d, 0x2e, 0x13, 0xfe, 0x04, 0x3d,
    0xe1, 0xd0, 0x25, 0xe1, 0x02, 0xbe, 0x05, 0x05, 0x01, 0xa8, 0x25, 0xf7,
    0x18, 0xc6, 0x13, 0xfb, 0xe0, 0xa9, 0x0f, 0x2a, 0x81, 0xe8, 0xfe, 0x21,
    0xb1, 0x12, 0x44, 0x0a, 0xa6, 0x26, 0x00, 0x00, 0x00, 0x00, 0x00, 0x00,
    0x00, 0x00, 0x00, 0x00, 0x00, 0x00, 0x00, 0x00, 0x00, 0x00, 0x00, 0x00,
    0x00, 0x00, 0x00, 0x00, 0x00, 0x00, 0x00, 0x00, 0x00, 0x00, 0x00, 0x00,
    0x00, 0x00, 0x00, 0x00, 0x00, 0x00, 0x00, 0x00, 0x00, 0x00, 0x00, 0x00,
    0x00, 0x00, 0x00, 0x00, 0x00, 0x00, 0x00, 0x00, 0x00, 0x00, 0x00, 0x00,
    0x00, 0x00, 0x00, 0x00, 0x00, 0x00, 0x00, 0x00, 0x00, 0x00, 0x00, 0x00,
    0x00, 0x00, 0x00, 0x00, 0x00, 0x00, 0x00, 0x00, 0x00, 0x00, 0x00, 0x00,
    0x00, 0x00, 0x00, 0x00, 0x00, 0x00, 0x00, 0x00, 0x00, 0x00, 0x00, 0x00,
    0x00, 0x00, 0x00, 0x00, 0x00, 0x00, 0x00, 0x00, 0x00, 0x00, 0x00, 0x00,
    0x00, 0x00, 0x00, 0x00, 0x00, 0x00, 0x00, 0x00, 0x00, 0x00, 0x00, 0x00,
    0x00, 0x00, 0x00, 0x00, 0x00, 0x00, 0x00, 0x00, 0x00, 0x00, 0x00, 0x00,
    0x00, 0x00, 0x00, 0x00, 0x00, 0x00, 0x00, 0x00, 0x00, 0x00, 0x00, 0x00,
    0x00, 0x00, 0x00, 0x00, 0x00, 0x00, 0x00, 0x00, 0x00, 0x00, 0x00, 0x00,
    0x00, 0x00, 0x00, 0x00, 0xf1, 0x15, 0xfe, 0xb3, 0xdb, 0xff, 0xeb, 0xd5,
    0xf7, 0x21, 0x0a, 0x1c, 0x1f, 0xe4, 0x13, 0xf9, 0x19, 0x46, 0xd8, 0xd3,
    0x41, 0xf3, 0xe6, 0x11, 0xf2, 0xf3, 0x12, 0xfe, 0xf2, 0x07, 0xef, 0xf8,
    0x07, 0x1a, 0xfa, 0x17, 0xf7, 0x18, 0x17, 0x05, 0x00, 0x29, 0x1c, 0x0d,
    0xec, 0xe4, 0xed, 0x26, 0x0b, 0xcb, 0xfe, 0xf7, 0xf5, 0x01, 0x03, 0x0b,
    0xdf, 0xfe, 0xf5, 0x17, 0x12, 0x30, 0xe7, 0x08, 0x81, 0x16, 0xd5, 0xed,
    0xfb, 0xdb, 0x15, 0xf7, 0x0a, 0x12, 0x00, 0x00, 0x07, 0x35, 0x1e, 0x06,
    0xe2, 0x08, 0x21, 0x3c, 0xe0, 0xc6, 0x2f, 0x04, 0xdf, 0xff, 0xed, 0xe5,
    0xff, 0xe9, 0x0d, 0xff, 0xcf, 0xe4, 0xe5, 0x09, 0x0f, 0xec, 0xeb, 0x3a,
    0xcc, 0xfd, 0xe7, 0xf2, 0x09, 0xf2, 0x00, 0x1b, 0x14, 0xdf, 0xe5, 0xfd,
    0x32, 0x06, 0xc5, 0xd6, 0xef, 0x04, 0xc7, 0xd3, 0xf8, 0xcd, 0xb8, 0xdf,
    0xca, 0x2c, 0x2f, 0x81, 0x46, 0x05, 0xfa, 0x27, 0xeb, 0xda, 0x2e, 0x06,
    0xcf, 0x07, 0xea, 0xc3, 0xdf, 0xf4, 0x02, 0xf1, 0xd4, 0x3b, 0x00, 0x00,
    0x00, 0x00, 0x00, 0x00, 0x00, 0x00, 0x00, 0x00, 0x00, 0x00, 0x00, 0x00,
    0x00, 0x00, 0x00, 0x00, 0x00, 0x00, 0x00, 0x00, 0x00, 0x00, 0x00, 0x00,
    0x00, 0x00, 0x00, 0x00, 0x00, 0x00, 0x00, 0x00, 0x00, 0x00, 0x00, 0x00,
    0x00, 0x00, 0x00, 0x00, 0x00, 0x00, 0x00, 0x00, 0x00, 0x00, 0x00, 0x00,
    0x00, 0x00, 0x00, 0x00, 0x00, 0x00, 0x00, 0x00, 0x00, 0x00, 0x00, 0x00,
    0x00, 0x00, 0x00, 0x00, 0x00, 0x00, 0x00, 0x00, 0x00, 0x00, 0x00, 0x00,
    0x00, 0x00, 0x00, 0x00, 0x2e, 0x44, 0x1a, 0x0b, 0xf9, 0x25, 0xdc, 0xe2,
    0x3d, 0xce, 0xf5, 0xe5, 0xed, 0x20, 0x09, 0x0e, 0x17, 0xf6, 0xe5, 0x01,
    0x10, 0xc6, 0x07, 0xed, 0x04, 0xfc, 0x03, 0x05, 0xde, 0x15, 0x13, 0x03,
    0x09, 0xfb, 0xe1, 0xca, 0xfd, 0x0e, 0xf3, 0x1a, 0x03, 0x1d, 0xfe, 0x0d,
    0x11, 0xf0, 0x10, 0xed, 0xde, 0x2d, 0x01, 0xe4, 0xca, 0x0e, 0x14, 0x03,
    0x05, 0xee, 0xda, 0xdd, 0xce, 0x0a, 0x0c, 0x07, 0x81, 0x2a, 0xdf, 0xf4,
    0x0f, 0xe1, 0xe7, 0x01, 0xfe, 0x18, 0x00, 0x00, 0xf1, 0xea, 0xfe, 0x33,
    0xe5, 0xe8, 0x02, 0x16, 0xea, 0x1b, 0x1a, 0x17, 0xff, 0x43, 0xf7, 0x16,
    0xed, 0x16, 0x31, 0x12, 0xfd, 0x12, 0x17, 0x07, 0x2e, 0x38, 0xfb, 0xff,
    0x39, 0x20, 0x00, 0xd4, 0xcb, 0xb2, 0x10, 0xff, 0x19, 0x3a, 0x17, 0xf7,
    0x0d, 0xf9, 0xf7, 0xfa, 0x2d, 0xfa, 0x22, 0x34, 0x04, 0x11, 0x26, 0x37,
    0x1b, 0xfc, 0x13, 0x1f, 0xff, 0x0a, 0x0b, 0x16, 0xee, 0xdf, 0x20, 0xdb,
    0x81, 0x1f, 0xfe, 0x4b, 0x76, 0xef, 0x05, 0xe0, 0x02, 0x30, 0x00, 0x00,
    0xcc, 0xe0, 0xc6, 0xdf, 0x03, 0x10, 0x46, 0xef, 0x14, 0x1a, 0x1f, 0x44,
    0xf1, 0xec, 0xfe, 0x21, 0x21, 0xcf, 0xf1, 0xb8, 0xd8, 0xef, 0x0c, 0x0b,
    0xf8, 0x96, 0xd3, 0xdb, 0x25, 0xa9, 0xe9, 0xd0, 0xf2, 0xde, 0xf3, 0xd0,
    0xfd, 0xf0, 0xbe, 0x00, 0xee, 0xe9, 0x0e, 0xd3, 0xef, 0x09, 0xf6, 0xe1,
    0x0c, 0xff, 0x2d, 0x28, 0x18, 0x01, 0xf2, 0x0b, 0xdc, 0xe8, 0x0c, 0x18,
    0xe9, 0x02, 0x0d, 0x09, 0xf2, 0x23, 0x12, 0x08, 0x81, 0x2c, 0x45, 0xe7,
    0x12, 0xf9, 0x00, 0x00, 0xb9, 0xf7, 0x16, 0xf7, 0xf9, 0xed, 0x10, 0x1d,
    0xda, 0xfd, 0xfb, 0xf0, 0x27, 0x0e, 0xed, 0x12, 0x36, 0xfa, 0xcb, 0x1d,
    0x03, 0xd0, 0xfe, 0x0e, 0xe1, 0xd1, 0xcd, 0xfc, 0x23, 0xe1, 0x2a, 0x17,
    0xd2, 0x16, 0xef, 0x44, 0xe9, 0xb6, 0xe1, 0xfd, 0xdb, 0x24, 0x15, 0x28,
    0xe9, 0xc8, 0xe6, 0xdf, 0xaf, 0xe4, 0xf2, 0x1c, 0xda, 0xfc, 0x20, 0xda,
    0xda, 0x15, 0xda, 0x1d, 0x21, 0x0f, 0x09, 0x38, 0xf1, 0x06, 0xf4, 0x03,
    0x7f, 0xec, 0x21, 0xe0, 0x07, 0xff, 0x00, 0x00, 0x22, 0xd9, 0xbb, 0xec,
    0xf5, 0xce, 0xd1, 0xdd, 0xfd, 0xbc, 0xfa, 0x26, 0xdf, 0x17, 0xcb, 0x0d,
    0xf2, 0x1b, 0x1c, 0x17, 0xfc, 0xc2, 0x03, 0xfc, 0x19, 0xea, 0x24, 0xe8,
    0x0f, 0xdf, 0xfd, 0xf2, 0xbf, 0x0a, 0x17, 0xf7, 0x08, 0x34, 0x06, 0x28,
    0xf2, 0x1f, 0xe9, 0xed, 0x01, 0x1e, 0x0c, 0x10, 0xe1, 0xe5, 0xef, 0xe2,
    0x09, 0xfe, 0xdb, 0xfa, 0xf5, 0x93, 0x94, 0x07, 0xfe, 0xf4, 0xf8, 0x01,
    0x08, 0x1e, 0xf0, 0x20, 0x7f, 0x01, 0x47, 0x1a, 0xfe, 0xc8, 0x00, 0x00,
    0x00, 0x00, 0x00, 0x00, 0x00, 0x00, 0x00, 0x00, 0x00, 0x00, 0x00, 0x00,
    0x00, 0x00, 0x00, 0x00, 0x00, 0x00, 0x00, 0x00, 0x00, 0x00, 0x00, 0x00,
    0x00, 0x00, 0x00, 0x00, 0x00, 0x00, 0x00, 0x00, 0x00, 0x00, 0x00, 0x00,
    0x00, 0x00, 0x00, 0x00, 0x00, 0x00, 0x00, 0x00, 0x00, 0x00, 0x00, 0x00,
    0x00, 0x00, 0x00, 0x00, 0x00, 0x00, 0x00, 0x00, 0x00, 0x00, 0x00, 0x00,
    0x00, 0x00, 0x00, 0x00, 0x00, 0x00, 0x00, 0x00, 0x00, 0x00, 0x00, 0x00,
    0x00, 0x00, 0x00, 0x00, 0x00, 0x00, 0x00, 0x00, 0x00, 0x00, 0x00, 0x00,
    0x00, 0x00, 0x00, 0x00, 0x00, 0x00, 0x00, 0x00, 0x00, 0x00, 0x00, 0x00,
    0x00, 0x00, 0x00, 0x00, 0x00, 0x00, 0x00, 0x00, 0x00, 0x00, 0x00, 0x00,
    0x00, 0x00, 0x00, 0x00, 0x00, 0x00, 0x00, 0x00, 0x00, 0x00, 0x00, 0x00,
    0x00, 0x00, 0x00, 0x00, 0x00, 0x00, 0x00, 0x00, 0x00, 0x00, 0x00, 0x00,
    0x00, 0x00, 0x00, 0x00, 0x00, 0x00, 0x00, 0x00, 0x00, 0x00, 0x00, 0x00,
    0x00, 0x00, 0x00, 0x00, 0x00, 0x00, 0x00, 0x00, 0xb9, 0x28, 0x12, 0x4b,
    0x09, 0xf2, 0xc7, 0x9c, 0xf1, 0x2d, 0xe6, 0xf0, 0x1d, 0x04, 0x9d, 0xe4,
    0xfd, 0xfd, 0x21, 0xf7, 0xda, 0xd2, 0x89, 0xc3, 0x1a, 0x1b, 0x1d, 0xe2,
    0xdd, 0xf6, 0xbd, 0xd6, 0x7f, 0x7c, 0x6a, 0xd8, 0xf8, 0x0b, 0xae, 0xd1,
    0xca, 0x47, 0x11, 0x23, 0xe6, 0xc8, 0xd0, 0xb5, 0xf2, 0x00, 0xf4, 0xc5,
    0xe5, 0x03, 0xfd, 0x18, 0xeb, 0xfc, 0x1e, 0xc0, 0xda, 0x27, 0x12, 0x2b,
    0xf6, 0xd4, 0xd0, 0x7d, 0xee, 0xeb, 0xbb, 0x00, 0xd2, 0xe1, 0x00, 0x00,
    0xfe, 0xfc, 0xff, 0xff, 0x04, 0x00, 0x00, 0x00, 0x80, 0x00, 0x00, 0x00,
    0x41, 0xf3, 0xff, 0xff, 0x97, 0xef, 0xff, 0xff, 0x00, 0x00, 0x00, 0xc0,
    0x78, 0x5f, 0xea, 0xfe, 0xc9, 0xfb, 0xff, 0xff, 0xa5, 0xee, 0xff, 0xff,
    0xd0, 0xf6, 0xdc, 0xfb, 0xf6, 0xef, 0xff, 0xff, 0x50, 0xa8, 0x7a, 0xf5,
    0x99, 0xf4, 0xff, 0xff, 0xe5, 0xfd, 0xff, 0xff, 0xa0, 0xf9, 0x3c, 0xfc,
    0x40, 0xa1, 0xe6, 0xec, 0x20, 0xfb, 0xff, 0xff, 0x78, 0x1b, 0x4d, 0xfa,
    0x88, 0xf2, 0xff, 0xff, 0xfc, 0xff, 0xff, 0xff, 0x01, 0xf4, 0xff, 0xff,
    0x2e, 0xfa, 0xff, 0xff, 0x20, 0x5e, 0x87, 0xed, 0xf0, 0xa4, 0x2f, 0xfc,
    0xc5, 0xfe, 0xff, 0xff, 0x98, 0xea, 0xff, 0xff, 0x40, 0x7c, 0x35, 0xd9,
    0x5e, 0x01, 0x00, 0x00, 0xdf, 0xfa, 0xff, 0xff, 0x86, 0xf5, 0xff, 0xff,
    0x42, 0x03, 0x00, 0x00, 0xc5, 0xfc, 0xff, 0xff, 0x20, 0xc3, 0xa9, 0xf6,
    0x72, 0x4c, 0xa9, 0xfe, 0xa6, 0x01, 0x00, 0x00, 0x8a, 0xfd, 0xff, 0xff,
    0x04, 0x00, 0x00, 0x00, 0x00, 0x02, 0x00, 0x00, 0xbc, 0xab, 0x00, 0x00,
    0xc5, 0xb9, 0x00, 0x62, 0x00, 0xc6, 0x53, 0x00, 0x00, 0x9f, 0x00, 0xa9,
    0x31, 0xc4, 0xcb, 0x00, 0x00, 0xcd, 0xa5, 0x00, 0xcd, 0x7f, 0xa0, 0x4f,
    0x12, 0x00, 0x00, 0x38, 0x34, 0x58, 0x00, 0x00, 0x64, 0x62, 0x00, 0xa5,
    0x00, 0x45, 0xc0, 0x00, 0x00, 0x7f, 0x00, 0x62, 0x90, 0x51, 0x2f, 0x00,
    0x00, 0x42, 0x6b, 0x00, 0x4a, 0xbe, 0x58, 0x99, 0x95, 0x00, 0x00, 0xb8,
    0xbd, 0xaa, 0x00, 0x00, 0xc5, 0xb8, 0x00, 0x62, 0x00, 0xc5, 0x53, 0x00,
    0x00, 0x9d, 0x00, 0xa6, 0x2d, 0xc4, 0xcb, 0x00, 0x00, 0xcc, 0xa4, 0x00,
    0xcb, 0x7f, 0x9f, 0x4a, 0x0f, 0x00, 0x00, 0x31, 0x36, 0x58, 0x00, 0x00,
    0x62, 0x62, 0x00, 0xa2, 0x00, 0x45, 0xc2, 0x00, 0x00, 0x7f, 0x00, 0x62,
    0x90, 0x50, 0x2f, 0x00, 0x00, 0x41, 0x6a, 0x00, 0x4a, 0xc2, 0x56, 0x9c,
    0x9b, 0x00, 0x00, 0xb4, 0x34, 0x54, 0x00, 0x00, 0x62, 0x60, 0x00, 0x9b,
    0x00, 0x43, 0xc0, 0x00, 0x00, 0x7f, 0x00, 0x60, 0x89, 0x4b, 0x2e, 0x00,
    0x00, 0x40, 0x69, 0x00, 0x4c, 0xbe, 0x52, 0x94, 0x96, 0x00, 0x00, 0xb1,
    0x00, 0x00, 0x00, 0x00, 0x00, 0x00, 0x00, 0x00, 0x00, 0x00, 0x00, 0x00,
    0x00, 0x00, 0x00, 0x00, 0x00, 0x00, 0x00, 0x00, 0x00, 0x00, 0x00, 0x00,
    0x00, 0x00, 0x00, 0x00, 0x00, 0x00, 0x00, 0x00, 0xc1, 0xa7, 0x00, 0x00,
    0xc3, 0xb7, 0x00, 0x60, 0x00, 0xc4, 0x4f, 0x00, 0x00, 0x95, 0x00, 0x9c,
    0x24, 0xc1, 0xd0, 0x00, 0x00, 0xca, 0xa3, 0x00, 0xc3, 0x7f, 0xa2, 0x3e,
    0x09, 0x00, 0x00, 0x20, 0x34, 0x55, 0x00, 0x00, 0x62, 0x60, 0x00, 0x9d,
    0x00, 0x43, 0xc2, 0x00, 0x00, 0x7f, 0x00, 0x61, 0x8c, 0x4a, 0x2e, 0x00,
    0x00, 0x41, 0x69, 0x00, 0x4a, 0xc3, 0x53, 0x97, 0x9a, 0x00, 0x00, 0xb4,
    0xc0, 0xa9, 0x00, 0x00, 0xc3, 0xb7, 0x00, 0x61, 0x00, 0xc8, 0x52, 0x00,
    0x00, 0x9a, 0x00, 0xa4, 0x2d, 0xc1, 0xcd, 0x00, 0x00, 0xcb, 0xa4, 0x00,
    0xca, 0x7f, 0xa3, 0x4c, 0x10, 0x00, 0x00, 0x32, 0x36, 0x58, 0x00, 0x00,
    0x5e, 0x5f, 0x00, 0xa3, 0x00, 0x43, 0xc4, 0x00, 0x00, 0x7f, 0x00, 0x65,
    0x94, 0x4e, 0x2e, 0x00, 0x00, 0x40, 0x68, 0x00, 0x48, 0xc5, 0x53, 0xa4,
    0xa6, 0x00, 0x00, 0xb6, 0x35, 0x58, 0x00, 0x00, 0x5f, 0x5f, 0x00, 0xa4,
    0x00, 0x43, 0xc5, 0x00, 0x00, 0x7f, 0x00, 0x64, 0x95, 0x4e, 0x2e, 0x00,
    0x00, 0x40, 0x68, 0x00, 0x48, 0xc7, 0x53, 0xa4, 0xa4, 0x00, 0x00, 0xb7,
    0x34, 0x55, 0x00, 0x00, 0x63, 0x60, 0x00, 0x9c, 0x00, 0x43, 0xc0, 0x00,
    0x00, 0x7f, 0x00, 0x60, 0x89, 0x4b, 0x2e, 0x00, 0x00, 0x41, 0x69, 0x00,
    0x4b, 0xbf, 0x53, 0x93, 0x97, 0x00, 0x00, 0xb1, 0xc1, 0xa8, 0x00, 0x00,
    0xc2, 0xb6, 0x00, 0x61, 0x00, 0xc7, 0x51, 0x00, 0x00, 0x97, 0x00, 0xa1,
    0x2c, 0xbf, 0xcc, 0x00, 0x00, 0xca, 0xa3, 0x00, 0xc7, 0x7f, 0xa2, 0x4a,
    0x0f, 0x00, 0x00, 0x2f, 0xc1, 0xa7, 0x00, 0x00, 0xc4, 0xb7, 0x00, 0x61,
    0x00, 0xc4, 0x50, 0x00, 0x00, 0x96, 0x00, 0x9d, 0x25, 0xc1, 0xd0, 0x00,
    0x00, 0xcb, 0xa3, 0x00, 0xc4, 0x7f, 0xa2, 0x3f, 0x0a, 0x00, 0x00, 0x21,
    0x36, 0x58, 0x00, 0x00, 0x5e, 0x5f, 0x00, 0xa7, 0x00, 0x44, 0xc7, 0x00,
    0x00, 0x7f, 0x00, 0x65, 0x98, 0x50, 0x2f, 0x00, 0x00, 0x40, 0x68, 0x00,
    0x48, 0xcb, 0x55, 0xaa, 0xa7, 0x00, 0x00, 0xba, 0xbc, 0xaa, 0x00, 0x00,
    0xc5, 0xb8, 0x00, 0x62, 0x00, 0xc5, 0x53, 0x00, 0x00, 0x9e, 0x00, 0xa7,
    0x30, 0xc4, 0xcb, 0x00, 0x00, 0xcc, 0xa5, 0x00, 0xcb, 0x7f, 0xa0, 0x4d,
    0x11, 0x00, 0x00, 0x34, 0x96, 0xff, 0xff, 0xff, 0x04, 0x00, 0x00, 0x00,
    0x40, 0x00, 0x00, 0x00, 0x67, 0x48, 0x00, 0x00, 0x03, 0x3b, 0x00, 0x00,
    0xa5, 0x4e, 0x00, 0x00, 0x74, 0x38, 0x00, 0x00, 0xe5, 0x3b, 0x00, 0x00,
    0x30, 0xb1, 0x90, 0xf4, 0x9d, 0x85, 0x00, 0x00, 0x9a, 0x38, 0x00, 0x00,
    0x28, 0x57, 0x00, 0x00, 0x2d, 0x35, 0x00, 0x00, 0xc8, 0x33, 0x00, 0x00,
    0x53, 0x3b, 0x00, 0x00, 0xa4, 0x64, 0x00, 0x00, 0x95, 0x72, 0x00, 0x00,
    0x6d, 0x30, 0x00, 0x00, 0x27, 0x4c, 0x00, 0x00, 0xe2, 0xff, 0xff, 0xff,
    0x04, 0x00, 0x00, 0x00, 0x10, 0x00, 0x00, 0x00, 0x62, 0x9e, 0x4e, 0x9a,
    0x86, 0x01, 0x30, 0x8a, 0x58, 0xa2, 0x98, 0x81, 0x54, 0x31, 0x9c, 0x59,
    0x00, 0x00, 0x06, 0x00, 0x08, 0x00, 0x04, 0x00, 0x06, 0x00, 0x00, 0x00,
    0x04, 0x00, 0x00, 0x00, 0x04, 0x00, 0x00, 0x00, 0xd4, 0x00, 0x00, 0x00,
    0x54, 0xff, 0xff, 0xff, 0x58, 0xff, 0xff, 0xff, 0x0f, 0x00, 0x00, 0x00,
    0x4d, 0x4c, 0x49, 0x52, 0x20, 0x43, 0x6f, 0x6e, 0x76, 0x65, 0x72, 0x74,
    0x65, 0x64, 0x2e, 0x00, 0x01, 0x00, 0x00, 0x00, 0x14, 0x00, 0x00, 0x00,
    0x00, 0x00, 0x0e, 0x00, 0x18, 0x00, 0x14, 0x00, 0x10, 0x00, 0x0c, 0x00,
    0x08, 0x00, 0x04, 0x00, 0x0e, 0x00, 0x00, 0x00, 0x14, 0x00, 0x00, 0x00,
    0x1c, 0x00, 0x00, 0x00, 0x1c, 0x01, 0x00, 0x00, 0x20, 0x01, 0x00, 0x00,
    0x24, 0x01, 0x00, 0x00, 0x04, 0x00, 0x00, 0x00, 0x6d, 0x61, 0x69, 0x6e,
    0x00, 0x00, 0x00, 0x00, 0x04, 0x00, 0x00, 0x00, 0xc4, 0x00, 0x00, 0x00,
    0x7c, 0x00, 0x00, 0x00, 0x34, 0x00, 0x00, 0x00, 0x10, 0x00, 0x00, 0x00,
    0x00, 0x00, 0x0a, 0x00, 0x10, 0x00, 0x0c, 0x00, 0x08, 0x00, 0x04, 0x00,
    0x0a, 0x00, 0x00, 0x00, 0x0c, 0x00, 0x00, 0x00, 0x10, 0x00, 0x00, 0x00,
    0x01, 0x00, 0x00, 0x00, 0x01, 0x00, 0x00, 0x00, 0x0a, 0x00, 0x00, 0x00,
    0x01, 0x00, 0x00, 0x00, 0x09, 0x00, 0x00, 0x00, 0xca, 0xff, 0xff, 0xff,
    0x14, 0x00, 0x00, 0x00, 0x00, 0x00, 0x00, 0x08, 0x10, 0x00, 0x00, 0x00,
    0x14, 0x00, 0x00, 0x00, 0x04, 0x00, 0x04, 0x00, 0x04, 0x00, 0x00, 0x00,
    0x01, 0x00, 0x00, 0x00, 0x09, 0x00, 0x00, 0x00, 0x03, 0x00, 0x00, 0x00,
    0x08, 0x00, 0x00, 0x00, 0x02, 0x00, 0x00, 0x00, 0x01, 0x00, 0x00, 0x00,
    0x00, 0x00, 0x0e, 0x00, 0x14, 0x00, 0x00, 0x00, 0x10, 0x00, 0x0c, 0x00,
    0x0b, 0x00, 0x04, 0x00, 0x0e, 0x00, 0x00, 0x00, 0x10, 0x00, 0x00, 0x00,
    0x00, 0x00, 0x00, 0x08, 0x10, 0x00, 0x00, 0x00, 0x14, 0x00, 0x00, 0x00,
    0xba, 0xff, 0xff, 0xff, 0x00, 0x00, 0x00, 0x01, 0x01, 0x00, 0x00, 0x00,
    0x08, 0x00, 0x00, 0x00, 0x03, 0x00, 0x00, 0x00, 0x07, 0x00, 0x00, 0x00,
    0x04, 0x00, 0x00, 0x00, 0x03, 0x00, 0x00, 0x00, 0x00, 0x00, 0x0e, 0x00,
    0x16, 0x00, 0x00, 0x00, 0x10, 0x00, 0x0c, 0x00, 0x0b, 0x00, 0x04, 0x00,
    0x0e, 0x00, 0x00, 0x00, 0x18, 0x00, 0x00, 0x00, 0x00, 0x00, 0x00, 0x08,
    0x18, 0x00, 0x00, 0x00, 0x1c, 0x00, 0x00, 0x00, 0x00, 0x00, 0x06, 0x00,
    0x08, 0x00, 0x07, 0x00, 0x06, 0x00, 0x00, 0x00, 0x00, 0x00, 0x00, 0x01,
    0x01, 0x00, 0x00, 0x00, 0x07, 0x00, 0x00, 0x00, 0x03, 0x00, 0x00, 0x00,
    0x00, 0x00, 0x00, 0x00, 0x06, 0x00, 0x00, 0x00, 0x05, 0x00, 0x00, 0x00,
    0x01, 0x00, 0x00, 0x00, 0x0a, 0x00, 0x00, 0x00, 0x01, 0x00, 0x00, 0x00,
    0x00, 0x00, 0x00, 0x00, 0x0b, 0x00, 0x00, 0x00, 0x60, 0x09, 0x00, 0x00,
    0xe8, 0x08, 0x00, 0x00, 0x6c, 0x08, 0x00, 0x00, 0x58, 0x07, 0x00, 0x00,
    0x3c, 0x06, 0x00, 0x00, 0x68, 0x04, 0x00, 0x00, 0x8c, 0x02, 0x00, 0x00,
    0xd8, 0x01, 0x00, 0x00, 0x1c, 0x01, 0x00, 0x00, 0x80, 0x00, 0x00, 0x00,
    0x04, 0x00, 0x00, 0x00, 0xe2, 0xf6, 0xff, 0xff, 0x00, 0x00, 0x00, 0x01,
    0x18, 0x00, 0x00, 0x00, 0x20, 0x00, 0x00, 0x00, 0x3c, 0x00, 0x00, 0x00,
    0x0b, 0x00, 0x00, 0x00, 0x00, 0x00, 0x00, 0x09, 0x50, 0x00, 0x00, 0x00,
    0x02, 0x00, 0x00, 0x00, 0xff, 0xff, 0xff, 0xff, 0x01, 0x00, 0x00, 0x00,
    0xcc, 0xf6, 0xff, 0xff, 0x08, 0x00, 0x00, 0x00, 0x10, 0x00, 0x00, 0x00,
    0x01, 0x00, 0x00, 0x00, 0x80, 0xff, 0xff, 0xff, 0xff, 0xff, 0xff, 0xff,
    0x01, 0x00, 0x00, 0x00, 0x00, 0x00, 0x80, 0x3b, 0x1b, 0x00, 0x00, 0x00,
    0x53, 0x74, 0x61, 0x74, 0x65, 0x66, 0x75, 0x6c, 0x50, 0x61, 0x72, 0x74,
    0x69, 0x74, 0x69, 0x6f, 0x6e, 0x65, 0x64, 0x43, 0x61, 0x6c, 0x6c, 0x5f,
    0x31, 0x3a, 0x30, 0x00, 0x02, 0x00, 0x00, 0x00, 0x01, 0x00, 0x00, 0x00,
    0x01, 0x00, 0x00, 0x00, 0x5a, 0xf7, 0xff, 0xff, 0x00, 0x00, 0x00, 0x01,
    0x18, 0x00, 0x00, 0x00, 0x20, 0x00, 0x00, 0x00, 0x3c, 0x00, 0x00, 0x00,
    0x0a, 0x00, 0x00, 0x00, 0x00, 0x00, 0x00, 0x09, 0x70, 0x00, 0x00, 0x00,
    0x02, 0x00, 0x00, 0x00, 0xff, 0xff, 0xff, 0xff, 0x01, 0x00, 0x00, 0x00,
    0x44, 0xf7, 0xff, 0xff, 0x08, 0x00, 0x00, 0x00, 0x10, 0x00, 0x00, 0x00,
    0x01, 0x00, 0x00, 0x00, 0x29, 0x00, 0x00, 0x00, 0x00, 0x00, 0x00, 0x00,
    0x01, 0x00, 0x00, 0x00, 0x7f, 0x3d, 0x91, 0x3d, 0x38, 0x00, 0x00, 0x00,
    0x73, 0x65, 0x71, 0x75, 0x65, 0x6e, 0x74, 0x69, 0x61, 0x6c, 0x5f, 0x31,
    0x2f, 0x64, 0x65, 0x6e, 0x73, 0x65, 0x5f, 0x32, 0x5f, 0x31, 0x2f, 0x4d,
    0x61, 0x74, 0x4d, 0x75, 0x6c, 0x3b, 0x73, 0x65, 0x71, 0x75, 0x65, 0x6e,
    0x74, 0x69, 0x61, 0x6c, 0x5f, 0x31, 0x2f, 0x64, 0x65, 0x6e, 0x73, 0x65,
    0x5f, 0x32, 0x5f, 0x31, 0x2f, 0x41, 0x64, 0x64, 0x00, 0x00, 0x00, 0x00,
    0x02, 0x00, 0x00, 0x00, 0x01, 0x00, 0x00, 0x00, 0x01, 0x00, 0x00, 0x00,
    0xf2, 0xf7, 0xff, 0xff, 0x00, 0x00, 0x00, 0x01, 0x18, 0x00, 0x00, 0x00,
    0x20, 0x00, 0x00, 0x00, 0x3c, 0x00, 0x00, 0x00, 0x09, 0x00, 0x00, 0x00,
    0x00, 0x00, 0x00, 0x09, 0x90, 0x00, 0x00, 0x00, 0x02, 0x00, 0x00, 0x00,
    0xff, 0xff, 0xff, 0xff, 0x10, 0x00, 0x00, 0x00, 0xdc, 0xf7, 0xff, 0xff,
    0x08, 0x00, 0x00, 0x00, 0x10, 0x00, 0x00, 0x00, 0x01, 0x00, 0x00, 0x00,
    0x80, 0xff, 0xff, 0xff, 0xff, 0xff, 0xff, 0xff, 0x01, 0x00, 0x00, 0x00,
    0xff, 0xa4, 0x3e, 0x3b, 0x58, 0x00, 0x00, 0x00, 0x73, 0x65, 0x71, 0x75,
    0x65, 0x6e, 0x74, 0x69, 0x61, 0x6c, 0x5f, 0x31, 0x2f, 0x64, 0x65, 0x6e,
    0x73, 0x65, 0x5f, 0x31, 0x5f, 0x32, 0x2f, 0x4d, 0x61, 0x74, 0x4d, 0x75,
    0x6c, 0x3b, 0x73, 0x65, 0x71, 0x75, 0x65, 0x6e, 0x74, 0x69, 0x61, 0x6c,
    0x5f, 0x31, 0x2f, 0x64, 0x65, 0x6e, 0x73, 0x65, 0x5f, 0x31, 0x5f, 0x32,
    0x2f, 0x52, 0x65, 0x6c, 0x75, 0x3b, 0x73, 0x65, 0x71, 0x75, 0x65, 0x6e,
    0x74, 0x69, 0x61, 0x6c, 0x5f, 0x31, 0x2f, 0x64, 0x65, 0x6e, 0x73, 0x65,
    0x5f, 0x31, 0x5f, 0x32, 0x2f, 0x42, 0x69, 0x61, 0x73, 0x41, 0x64, 0x64,
    0x00, 0x00, 0x00, 0x00, 0x02, 0x00, 0x00, 0x00, 0x01, 0x00, 0x00, 0x00,
    0x10, 0x00, 0x00, 0x00, 0xaa, 0xf8, 0xff, 0xff, 0x00, 0x00, 0x00, 0x01,
    0x18, 0x00, 0x00, 0x00, 0x20, 0x00, 0x00, 0x00, 0x3c, 0x00, 0x00, 0x00,
    0x08, 0x00, 0x00, 0x00, 0x00, 0x00, 0x00, 0x09, 0x88, 0x00, 0x00, 0x00,
    0x02, 0x00, 0x00, 0x00, 0xff, 0xff, 0xff, 0xff, 0x20, 0x00, 0x00, 0x00,
    0x94, 0xf8, 0xff, 0xff, 0x08, 0x00, 0x00, 0x00, 0x10, 0x00, 0x00, 0x00,
    0x01, 0x00, 0x00, 0x00, 0x80, 0xff, 0xff, 0xff, 0xff, 0xff, 0xff, 0xff,
    0x01, 0x00, 0x00, 0x00, 0x3c, 0xdf, 0x20, 0x3c, 0x52, 0x00, 0x00, 0x00,
    0x73, 0x65, 0x71, 0x75, 0x65, 0x6e, 0x74, 0x69, 0x61, 0x6c, 0x5f, 0x31,
    0x2f, 0x64, 0x65, 0x6e, 0x73, 0x65, 0x5f, 0x31, 0x2f, 0x4d, 0x61, 0x74,
    0x4d, 0x75, 0x6c, 0x3b, 0x73, 0x65, 0x71, 0x75, 0x65, 0x6e, 0x74, 0x69,
    0x61, 0x6c, 0x5f, 0x31, 0x2f, 0x64, 0x65, 0x6e, 0x73, 0x65, 0x5f, 0x31,
    0x2f, 0x52, 0x65, 0x6c, 0x75, 0x3b, 0x73, 0x65, 0x71, 0x75, 0x65, 0x6e,
    0x74, 0x69, 0x61, 0x6c, 0x5f, 0x31, 0x2f, 0x64, 0x65, 0x6e, 0x73, 0x65,
    0x5f, 0x31, 0x2f, 0x42, 0x69, 0x61, 0x73, 0x41, 0x64, 0x64, 0x00, 0x00,
    0x02, 0x00, 0x00, 0x00, 0x01, 0x00, 0x00, 0x00, 0x20, 0x00, 0x00, 0x00,
    0xce, 0xf9, 0xff, 0xff, 0x00, 0x00, 0x00, 0x01, 0x14, 0x00, 0x00, 0x00,
    0xa8, 0x01, 0x00, 0x00, 0x07, 0x00, 0x00, 0x00, 0x00, 0x00, 0x00, 0x09,
    0xb4, 0x01, 0x00, 0x00, 0x34, 0xf9, 0xff, 0xff, 0x08, 0x00, 0x00, 0x00,
    0x0c, 0x01, 0x00, 0x00, 0x20, 0x00, 0x00, 0x00, 0x00, 0x00, 0x00, 0x00,
    0x00, 0x00, 0x00, 0x00, 0x00, 0x00, 0x00, 0x00, 0x00, 0x00, 0x00, 0x00,
    0x00, 0x00, 0x00, 0x00, 0x00, 0x00, 0x00, 0x00, 0x00, 0x00, 0x00, 0x00,
    0x00, 0x00, 0x00, 0x00, 0x00, 0x00, 0x00, 0x00, 0x00, 0x00, 0x00, 0x00,
    0x00, 0x00, 0x00, 0x00, 0x00, 0x00, 0x00, 0x00, 0x00, 0x00, 0x00, 0x00,
    0x00, 0x00, 0x00, 0x00, 0x00, 0x00, 0x00, 0x00, 0x00, 0x00, 0x00, 0x00,
    0x00, 0x00, 0x00, 0x00, 0x00, 0x00, 0x00, 0x00, 0x00, 0x00, 0x00, 0x00,
    0x00, 0x00, 0x00, 0x00, 0x00, 0x00, 0x00, 0x00, 0x00, 0x00, 0x00, 0x00,
    0x00, 0x00, 0x00, 0x00, 0x00, 0x00, 0x00, 0x00, 0x00, 0x00, 0x00, 0x00,
    0x00, 0x00, 0x00, 0x00, 0x00, 0x00, 0x00, 0x00, 0x00, 0x00, 0x00, 0x00,
    0x00, 0x00, 0x00, 0x00, 0x00, 0x00, 0x00, 0x00, 0x00, 0x00, 0x00, 0x00,
    0x00, 0x00, 0x00, 0x00, 0x00, 0x00, 0x00, 0x00, 0x00, 0x00, 0x00, 0x00,
    0x00, 0x00, 0x00, 0x00, 0x00, 0x00, 0x00, 0x00, 0x00, 0x00, 0x00, 0x00,
    0x00, 0x00, 0x00, 0x00, 0x00, 0x00, 0x00, 0x00, 0x00, 0x00, 0x00, 0x00,
    0x00, 0x00, 0x00, 0x00, 0x00, 0x00, 0x00, 0x00, 0x00, 0x00, 0x00, 0x00,
    0x00, 0x00, 0x00, 0x00, 0x00, 0x00, 0x00, 0x00, 0x00, 0x00, 0x00, 0x00,
    0x00, 0x00, 0x00, 0x00, 0x00, 0x00, 0x00, 0x00, 0x00, 0x00, 0x00, 0x00,
    0x00, 0x00, 0x00, 0x00, 0x00, 0x00, 0x00, 0x00, 0x00, 0x00, 0x00, 0x00,
    0x00, 0x00, 0x00, 0x00, 0x00, 0x00, 0x00, 0x00, 0x00, 0x00, 0x00, 0x00,
    0x00, 0x00, 0x00, 0x00, 0x00, 0x00, 0x00, 0x00, 0x00, 0x00, 0x00, 0x00,
    0x00, 0x00, 0x00, 0x00, 0x00, 0x00, 0x00, 0x00, 0x00, 0x00, 0x00, 0x00,
    0x00, 0x00, 0x00, 0x00, 0x00, 0x00, 0x00, 0x00, 0x00, 0x00, 0x00, 0x00,
    0x00, 0x00, 0x00, 0x00, 0x20, 0x00, 0x00, 0x00, 0x88, 0x76, 0x7f, 0x3a,
    0x6f, 0xcc, 0xba, 0x3a, 0xe7, 0x9d, 0xa4, 0x31, 0x4a, 0x46, 0x87, 0x31,
    0xf8, 0x74, 0xc3, 0x3a, 0xe7, 0x80, 0xdb, 0x3a, 0x4a, 0x46, 0x87, 0x31,
    0x89, 0xe4, 0xa6, 0x3a, 0x4a, 0x46, 0x87, 0x31, 0xac, 0x01, 0x88, 0x3a,
    0xe8, 0x00, 0xba, 0x3a, 0x4a, 0x46, 0x87, 0x31, 0x4a, 0x46, 0x87, 0x31,
    0xbe, 0x0c, 0x01, 0x3b, 0x4a, 0x46, 0x87, 0x31, 0x20, 0x0e, 0xae, 0x3a,
    0x10, 0xf7, 0xe5, 0x3a, 0x41, 0x3e, 0xb9, 0x3a, 0xa8, 0xe4, 0x8d, 0x3a,
    0x4a, 0x46, 0x87, 0x31, 0x4a, 0x46, 0x87, 0x31, 0x77, 0x68, 0xde, 0x3a,
    0x15, 0xe8, 0xde, 0x3a, 0x4a, 0x46, 0x87, 0x31, 0x61, 0xd5, 0xe6, 0x3a,
    0x6c, 0x83, 0xe8, 0x3a, 0x63, 0x87, 0xdb, 0x3a, 0xb2, 0xa5, 0x05, 0x3b,
    0xea, 0x80, 0xc1, 0x3a, 0x4a, 0x46, 0x87, 0x31, 0x4a, 0x46, 0x87, 0x31,
    0x09, 0x09, 0x8e, 0x3a, 0x12, 0x00, 0x00, 0x00, 0x74, 0x66, 0x6c, 0x2e,
    0x70, 0x73, 0x65, 0x75, 0x64, 0x6f, 0x5f, 0x71, 0x63, 0x6f, 0x6e, 0x73,
    0x74, 0x35, 0x00, 0x00, 0x02, 0x00, 0x00, 0x00, 0x20, 0x00, 0x00, 0x00,
    0x4c, 0x00, 0x00, 0x00, 0xa6, 0xfb, 0xff, 0xff, 0x00, 0x00, 0x00, 0x01,
    0x14, 0x00, 0x00, 0x00, 0xa4, 0x01, 0x00, 0x00, 0x06, 0x00, 0x00, 0x00,
    0x00, 0x00, 0x00, 0x02, 0xb0, 0x01, 0x00, 0x00, 0x0c, 0xfb, 0xff, 0xff,
    0x08, 0x00, 0x00, 0x00, 0x08, 0x01, 0x00, 0x00, 0x20, 0x00, 0x00, 0x00,
    0x00, 0x00, 0x00, 0x00, 0x00, 0x00, 0x00, 0x00, 0x00, 0x00, 0x00, 0x00,
    0x00, 0x00, 0x00, 0x00, 0x00, 0x00, 0x00, 0x00, 0x00, 0x00, 0x00, 0x00,
    0x00, 0x00, 0x00, 0x00, 0x00, 0x00, 0x00, 0x00, 0x00, 0x00, 0x00, 0x00,
    0x00, 0x00, 0x00, 0x00, 0x00, 0x00, 0x00, 0x00, 0x00, 0x00, 0x00, 0x00,
    0x00, 0x00, 0x00, 0x00, 0x00, 0x00, 0x00, 0x00, 0x00, 0x00, 0x00, 0x00,
    0x00, 0x00, 0x00, 0x00, 0x00, 0x00, 0x00, 0x00, 0x00, 0x00, 0x00, 0x00,
    0x00, 0x00, 0x00, 0x00, 0x00, 0x00, 0x00, 0x00, 0x00, 0x00, 0x00, 0x00,
    0x00, 0x00, 0x00, 0x00, 0x00, 0x00, 0x00, 0x00, 0x00, 0x00, 0x00, 0x00,
    0x00, 0x00, 0x00, 0x00, 0x00, 0x00, 0x00, 0x00, 0x00, 0x00, 0x00, 0x00,
    0x00, 0x00, 0x00, 0x00, 0x00, 0x00, 0x00, 0x00, 0x00, 0x00, 0x00, 0x00,
    0x00, 0x00, 0x00, 0x00, 0x00, 0x00, 0x00, 0x00, 0x00, 0x00, 0x00, 0x00,
    0x00, 0x00, 0x00, 0x00, 0x00, 0x00, 0x00, 0x00, 0x00, 0x00, 0x00, 0x00,
    0x00, 0x00, 0x00, 0x00, 0x00, 0x00, 0x00, 0x00, 0x00, 0x00, 0x00, 0x00,
    0x00, 0x00, 0x00, 0x00, 0x00, 0x00, 0x00, 0x00, 0x00, 0x00, 0x00, 0x00,
    0x00, 0x00, 0x00, 0x00, 0x00, 0x00, 0x00, 0x00, 0x00, 0x00, 0x00, 0x00,
    0x00, 0x00, 0x00, 0x00, 0x00, 0x00, 0x00, 0x00, 0x00, 0x00, 0x00, 0x00,
    0x00, 0x00, 0x00, 0x00, 0x00, 0x00, 0x00, 0x00, 0x00, 0x00, 0x00, 0x00,
    0x00, 0x00, 0x00, 0x00, 0x00, 0x00, 0x00, 0x00, 0x00, 0x00, 0x00, 0x00,
    0x00, 0x00, 0x00, 0x00, 0x00, 0x00, 0x00, 0x00, 0x00, 0x00, 0x00, 0x00,
    0x00, 0x00, 0x00, 0x00, 0x00, 0x00, 0x00, 0x00, 0x00, 0x00, 0x00, 0x00,
    0x00, 0x00, 0x00, 0x00, 0x00, 0x00, 0x00, 0x00, 0x00, 0x00, 0x00, 0x00,
    0x00, 0x00, 0x00, 0x00, 0x20, 0x00, 0x00, 0x00, 0xbb, 0x10, 0x26, 0x38,
    0xf4, 0xdb, 0x72, 0x38, 0x39, 0x05, 0x56, 0x2f, 0x48, 0xdf, 0x2f, 0x2f,
    0xb3, 0x1d, 0x7e, 0x38, 0x8e, 0xb0, 0x8e, 0x38, 0x48, 0xdf, 0x2f, 0x2f,
    0xb6, 0xfa, 0x58, 0x38, 0x48, 0xdf, 0x2f, 0x2f, 0xe6, 0xd2, 0x30, 0x38,
    0x59, 0xd3, 0x71, 0x38, 0x48, 0xdf, 0x2f, 0x2f, 0x48, 0xdf, 0x2f, 0x2f,
    0x7d, 0xc7, 0xa7, 0x38, 0x48, 0xdf, 0x2f, 0x2f, 0x96, 0x4a, 0x62, 0x38,
    0x82, 0x7d, 0x95, 0x38, 0x47, 0xd6, 0x70, 0x38, 0x26, 0x7a, 0x38, 0x38,
    0x48, 0xdf, 0x2f, 0x2f, 0x48, 0xdf, 0x2f, 0x2f, 0xe9, 0x93, 0x90, 0x38,
    0xdf, 0xe6, 0x90, 0x38, 0x48, 0xdf, 0x2f, 0x2f, 0x07, 0x0e, 0x96, 0x38,
    0x94, 0x25, 0x97, 0x38, 0xc5, 0xb4, 0x8e, 0x38, 0xa9, 0xc1, 0xad, 0x38,
    0x93, 0x93, 0x7b, 0x38, 0x48, 0xdf, 0x2f, 0x2f, 0x48, 0xdf, 0x2f, 0x2f,
    0x72, 0xa9, 0x38, 0x38, 0x12, 0x00, 0x00, 0x00, 0x74, 0x66, 0x6c, 0x2e,
    0x70, 0x73, 0x65, 0x75, 0x64, 0x6f, 0x5f, 0x71, 0x63, 0x6f, 0x6e, 0x73,
    0x74, 0x34, 0x00, 0x00, 0x01, 0x00, 0x00, 0x00, 0x20, 0x00, 0x00, 0x00,
    0x76, 0xfd, 0xff, 0xff, 0x00, 0x00, 0x00, 0x01, 0x14, 0x00, 0x00, 0x00,
    0xe8, 0x00, 0x00, 0x00, 0x05, 0x00, 0x00, 0x00, 0x00, 0x00, 0x00, 0x09,
    0xf4, 0x00, 0x00, 0x00, 0xdc, 0xfc, 0xff, 0xff, 0x08, 0x00, 0x00, 0x00,
    0x8c, 0x00, 0x00, 0x00, 0x10, 0x00, 0x00, 0x00, 0x00, 0x00, 0x00, 0x00,
    0x00, 0x00, 0x00, 0x00, 0x00, 0x00, 0x00, 0x00, 0x00, 0x00, 0x00, 0x00,
    0x00, 0x00, 0x00, 0x00, 0x00, 0x00, 0x00, 0x00, 0x00, 0x00, 0x00, 0x00,
    0x00, 0x00, 0x00, 0x00, 0x00, 0x00, 0x00, 0x00, 0x00, 0x00, 0x00, 0x00,
    0x00, 0x00, 0x00, 0x00, 0x00, 0x00, 0x00, 0x00, 0x00, 0x00, 0x00, 0x00,
    0x00, 0x00, 0x00, 0x00, 0x00, 0x00, 0x00, 0x00, 0x00, 0x00, 0x00, 0x00,
    0x00, 0x00, 0x00, 0x00, 0x00, 0x00, 0x00, 0x00, 0x00, 0x00, 0x00, 0x00,
    0x00, 0x00, 0x00, 0x00, 0x00, 0x00, 0x00, 0x00, 0x00, 0x00, 0x00, 0x00,
    0x00, 0x00, 0x00, 0x00, 0x00, 0x00, 0x00, 0x00, 0x00, 0x00, 0x00, 0x00,
    0x00, 0x00, 0x00, 0x00, 0x00, 0x00, 0x00, 0x00, 0x00, 0x00, 0x00, 0x00,
    0x00, 0x00, 0x00, 0x00, 0x00, 0x00, 0x00, 0x00, 0x00, 0x00, 0x00, 0x00,
    0x00, 0x00, 0x00, 0x00, 0x00, 0x00, 0x00, 0x00, 0x10, 0x00, 0x00, 0x00,
    0xaa, 0xae, 0x94, 0x3a, 0x27, 0xc0, 0x76, 0x3a, 0xc8, 0xc0, 0x6b, 0x3a,
    0x46, 0xa8, 0x80, 0x3a, 0xf2, 0xe1, 0x9c, 0x3a, 0x4a, 0x46, 0x87, 0x31,
    0x63, 0x67, 0x13, 0x3a, 0xa2, 0x1c, 0x97, 0x3a, 0xc8, 0x08, 0x86, 0x3a,
    0xb4, 0xec, 0x6f, 0x3a, 0xd6, 0x08, 0x86, 0x3a, 0x2f, 0x10, 0xa3, 0x3a,
    0x36, 0x57, 0x80, 0x3a, 0x78, 0x7b, 0x15, 0x3a, 0x2e, 0x6a, 0x7f, 0x3a,
    0x61, 0xb8, 0x86, 0x3a, 0x12, 0x00, 0x00, 0x00, 0x74, 0x66, 0x6c, 0x2e,
    0x70, 0x73, 0x65, 0x75, 0x64, 0x6f, 0x5f, 0x71, 0x63, 0x6f, 0x6e, 0x73,
    0x74, 0x33, 0x00, 0x00, 0x02, 0x00, 0x00, 0x00, 0x10, 0x00, 0x00, 0x00,
    0x20, 0x00, 0x00, 0x00, 0x8e, 0xfe, 0xff, 0xff, 0x00, 0x00, 0x00, 0x01,
    0x14, 0x00, 0x00, 0x00, 0xe4, 0x00, 0x00, 0x00, 0x04, 0x00, 0x00, 0x00,
    0x00, 0x00, 0x00, 0x02, 0xf0, 0x00, 0x00, 0x00, 0xf4, 0xfd, 0xff, 0xff,
    0x08, 0x00, 0x00, 0x00, 0x88, 0x00, 0x00, 0x00, 0x10, 0x00, 0x00, 0x00,
    0x00, 0x00, 0x00, 0x00, 0x00, 0x00, 0x00, 0x00, 0x00, 0x00, 0x00, 0x00,
    0x00, 0x00, 0x00, 0x00, 0x00, 0x00, 0x00, 0x00, 0x00, 0x00, 0x00, 0x00,
    0x00, 0x00, 0x00, 0x00, 0x00, 0x00, 0x00, 0x00, 0x00, 0x00, 0x00, 0x00,
    0x00, 0x00, 0x00, 0x00, 0x00, 0x00, 0x00, 0x00, 0x00, 0x00, 0x00, 0x00,
    0x00, 0x00, 0x00, 0x00, 0x00, 0x00, 0x00, 0x00, 0x00, 0x00, 0x00, 0x00,
    0x00, 0x00, 0x00, 0x00, 0x00, 0x00, 0x00, 0x00, 0x00, 0x00, 0x00, 0x00,
    0x00, 0x00, 0x00, 0x00, 0x00, 0x00, 0x00, 0x00, 0x00, 0x00, 0x00, 0x00,
    0x00, 0x00, 0x00, 0x00, 0x00, 0x00, 0x00, 0x00, 0x00, 0x00, 0x00, 0x00,
    0x00, 0x00, 0x00, 0x00, 0x00, 0x00, 0x00, 0x00, 0x00, 0x00, 0x00, 0x00,
    0x00, 0x00, 0x00, 0x00, 0x00, 0x00, 0x00, 0x00, 0x00, 0x00, 0x00, 0x00,
    0x00, 0x00, 0x00, 0x00, 0x00, 0x00, 0x00, 0x00, 0x10, 0x00, 0x00, 0x00,
    0xa2, 0xdd, 0x3a, 0x37, 0x44, 0x0f, 0x1b, 0x37, 0x11, 0x26, 0x14, 0x37,
    0xb9, 0xb2, 0x21, 0x37, 0x0a, 0x2c, 0x45, 0x37, 0xc8, 0x03, 0x2a, 0x2e,
    0x4f, 0x42, 0xb9, 0x36, 0x55, 0xeb, 0x3d, 0x37, 0xbc, 0x74, 0x28, 0x37,
    0x28, 0xc5, 0x16, 0x37, 0xce, 0x74, 0x28, 0x37, 0x9d, 0xf0, 0x4c, 0x37,
    0xd8, 0x4c, 0x21, 0x37, 0x09, 0xdf, 0xbb, 0x36, 0x16, 0x81, 0x20, 0x37,
    0x6e, 0x51, 0x29, 0x37, 0x12, 0x00, 0x00, 0x00, 0x74, 0x66, 0x6c, 0x2e,
    0x70, 0x73, 0x65, 0x75, 0x64, 0x6f, 0x5f, 0x71, 0x63, 0x6f, 0x6e, 0x73,
    0x74, 0x32, 0x00, 0x00, 0x01, 0x00, 0x00, 0x00, 0x10, 0x00, 0x00, 0x00,
    0x9e, 0xff, 0xff, 0xff, 0x00, 0x00, 0x00, 0x01, 0x14, 0x00, 0x00, 0x00,
    0x30, 0x00, 0x00, 0x00, 0x03, 0x00, 0x00, 0x00, 0x00, 0x00, 0x00, 0x09,
    0x3c, 0x00, 0x00, 0x00, 0x04, 0xff, 0xff, 0xff, 0x08, 0x00, 0x00, 0x00,
    0x10, 0x00, 0x00, 0x00, 0x01, 0x00, 0x00, 0x00, 0x00, 0x00, 0x00, 0x00,
    0x00, 0x00, 0x00, 0x00, 0x01, 0x00, 0x00, 0x00, 0x56, 0xa4, 0xb1, 0x3c,
    0x12, 0x00, 0x00, 0x00, 0x74, 0x66, 0x6c, 0x2e, 0x70, 0x73, 0x65, 0x75,
    0x64, 0x6f, 0x5f, 0x71, 0x63, 0x6f, 0x6e, 0x73, 0x74, 0x31, 0x00, 0x00,
    0x02, 0x00, 0x00, 0x00, 0x01, 0x00, 0x00, 0x00, 0x10, 0x00, 0x00, 0x00,
    0x00, 0x00, 0x16, 0x00, 0x1c, 0x00, 0x18, 0x00, 0x17, 0x00, 0x10, 0x00,
    0x0c, 0x00, 0x08, 0x00, 0x00, 0x00, 0x00, 0x00, 0x00, 0x00, 0x07, 0x00,
    0x16, 0x00, 0x00, 0x00, 0x00, 0x00, 0x00, 0x01, 0x14, 0x00, 0x00, 0x00,
    0x30, 0x00, 0x00, 0x00, 0x02, 0x00, 0x00, 0x00, 0x00, 0x00, 0x00, 0x02,
    0x3c, 0x00, 0x00, 0x00, 0x7c, 0xff, 0xff, 0xff, 0x08, 0x00, 0x00, 0x00,
    0x10, 0x00, 0x00, 0x00, 0x01, 0x00, 0x00, 0x00, 0x00, 0x00, 0x00, 0x00,
    0x00, 0x00, 0x00, 0x00, 0x01, 0x00, 0x00, 0x00, 0x76, 0x4a, 0x84, 0x38,
    0x11, 0x00, 0x00, 0x00, 0x74, 0x66, 0x6c, 0x2e, 0x70, 0x73, 0x65, 0x75,
    0x64, 0x6f, 0x5f, 0x71, 0x63, 0x6f, 0x6e, 0x73, 0x74, 0x00, 0x00, 0x00,
    0x01, 0x00, 0x00, 0x00, 0x01, 0x00, 0x00, 0x00, 0x00, 0x00, 0x16, 0x00,
    0x20, 0x00, 0x1c, 0x00, 0x1b, 0x00, 0x14, 0x00, 0x10, 0x00, 0x0c, 0x00,
    0x00, 0x00, 0x00, 0x00, 0x08, 0x00, 0x07, 0x00, 0x16, 0x00, 0x00, 0x00,
    0x00, 0x00, 0x00, 0x01, 0x18, 0x00, 0x00, 0x00, 0x2c, 0x00, 0x00, 0x00,
    0x48, 0x00, 0x00, 0x00, 0x01, 0x00, 0x00, 0x00, 0x00, 0x00, 0x00, 0x09,
    0x60, 0x00, 0x00, 0x00, 0x02, 0x00, 0x00, 0x00, 0xff, 0xff, 0xff, 0xff,
    0x4c, 0x00, 0x00, 0x00, 0x0c, 0x00, 0x0c, 0x00, 0x00, 0x00, 0x00, 0x00,
    0x08, 0x00, 0x04, 0x00, 0x0c, 0x00, 0x00, 0x00, 0x08, 0x00, 0x00, 0x00,
    0x10, 0x00, 0x00, 0x00, 0x01, 0x00, 0x00, 0x00, 0xef, 0xff, 0xff, 0xff,
    0xff, 0xff, 0xff, 0xff, 0x01, 0x00, 0x00, 0x00, 0x18, 0x6a, 0x26, 0x3d,
    0x1e, 0x00, 0x00, 0x00, 0x73, 0x65, 0x72, 0x76, 0x69, 0x6e, 0x67, 0x5f,
    0x64, 0x65, 0x66, 0x61, 0x75, 0x6c, 0x74, 0x5f, 0x6b, 0x65, 0x72, 0x61,
    0x73, 0x5f, 0x74, 0x65, 0x6e, 0x73, 0x6f, 0x72, 0x3a, 0x30, 0x00, 0x00,
    0x02, 0x00, 0x00, 0x00, 0x01, 0x00, 0x00, 0x00, 0x4c, 0x00, 0x00, 0x00,
    0x02, 0x00, 0x00, 0x00, 0x24, 0x00, 0x00, 0x00, 0x04, 0x00, 0x00, 0x00,
    0xf0, 0xff, 0xff, 0xff, 0x0e, 0x00, 0x00, 0x00, 0x02, 0x00, 0x00, 0x00,
    0x00, 0x00, 0x00, 0x0e, 0x0c, 0x00, 0x10, 0x00, 0x0f, 0x00, 0x00, 0x00,
    0x08, 0x00, 0x04, 0x00, 0x0c, 0x00, 0x00, 0x00, 0x09, 0x00, 0x00, 0x00,
    0x04, 0x00, 0x00, 0x00, 0x00, 0x00, 0x00, 0x09
};
                const unsigned int model_tflite_len = 6680;
                #endif
                